unsigned char sine_model_data_tflite[] = {
  0x18, 0x00, 0x00, 0x00, 0x54, 0x46, 0x4c, 0x33, 0x00, 0x00, 0x0e, 0x00,
  0x18, 0x00, 0x04, 0x00, 0x08, 0x00, 0x0c, 0x00, 0x10, 0x00, 0x14, 0x00,
  0x0e, 0x00, 0x00, 0x00, 0x03, 0x00, 0x00, 0x00, 0xec, 0x09, 0x00, 0x00,
  0xb8, 0x05, 0x00, 0x00, 0xa0, 0x05, 0x00, 0x00, 0x04, 0x00, 0x00, 0x00,
  0x0b, 0x00, 0x00, 0x00, 0x90, 0x05, 0x00, 0x00, 0x7c, 0x05, 0x00, 0x00,
  0x24, 0x05, 0x00, 0x00, 0xd4, 0x04, 0x00, 0x00, 0xcc, 0x04, 0x00, 0x00,
  0xc4, 0x04, 0x00, 0x00, 0xbc, 0x04, 0x00, 0x00, 0x6c, 0x04, 0x00, 0x00,
  0x5c, 0x00, 0x00, 0x00, 0x0c, 0x00, 0x00, 0x00, 0x04, 0x00, 0x00, 0x00,
  0x78, 0xf6, 0xff, 0xff, 0xb6, 0xfa, 0xff, 0xff, 0x04, 0x00, 0x00, 0x00,
  0x40, 0x00, 0x00, 0x00, 0xaf, 0xd9, 0x1e, 0x3e, 0xe0, 0x5f, 0x18, 0xbd,
  0x3b, 0x58, 0x48, 0x3e, 0xdb, 0x97, 0xc0, 0xbe, 0x01, 0xc6, 0x00, 0x3f,
  0x30, 0x4e, 0x56, 0xbe, 0x32, 0xa1, 0xf2, 0x3e, 0xda, 0xfd, 0x04, 0x3f,
  0x3f, 0x00, 0x3b, 0x3e, 0x7a, 0x24, 0x33, 0xbe, 0x0f, 0x34, 0x94, 0xbc,
  0xa6, 0xfe, 0xe4, 0x3d, 0xe0, 0x6c, 0x6f, 0xbd, 0x9e, 0xce, 0xee, 0x3e,
  0xae, 0xbe, 0xbe, 0x3e, 0x07, 0xb4, 0xfb, 0x3e, 0x02, 0xfb, 0xff, 0xff,
  0x04, 0x00, 0x00, 0x00, 0x00, 0x04, 0x00, 0x00, 0x47, 0xfa, 0x7f, 0x3e,
  0xe3, 0x8c, 0xa0, 0x3e, 0x30, 0x0c, 0x61, 0x3e, 0xd1, 0xa9, 0xaf, 0x3e,
  0xa3, 0x2e, 0xec, 0xbd, 0x80, 0xa4, 0xaf, 0xbe, 0x2e, 0xc7, 0x72, 0xbe,
  0x13, 0x51, 0xbe, 0xbe, 0x83, 0xe1, 0xa9, 0x3e, 0x9c, 0x5d, 0x6b, 0xbe,
  0x2b, 0xf1, 0x54, 0x3d, 0x38, 0x4c, 0x83, 0xbe, 0xd4, 0x2c, 0x28, 0xbe,
  0x3c, 0x83, 0x33, 0x3e, 0xfd, 0x5e, 0x11, 0x3e, 0x83, 0xcd, 0xdd, 0xbe,
  0xb2, 0xb2, 0xa9, 0xbe, 0x98, 0x0f, 0x4b, 0x3d, 0xf7, 0xda, 0x84, 0xbe,
  0xea, 0x5f, 0x39, 0xbe, 0x2b, 0xce, 0x03, 0x3e, 0xe6, 0x7a, 0x32, 0x3e,
  0x01, 0xd2, 0x15, 0x3e, 0xbc, 0xe5, 0x9d, 0x3e, 0xa6, 0x6f, 0xcc, 0xbe,
  0xbd, 0x8a, 0xc0, 0x3e, 0xdc, 0x87, 0x9c, 0xbe, 0x4b, 0xe2, 0x98, 0xbe,
  0xc7, 0xc0, 0xc8, 0x3e, 0x6d, 0x59, 0x58, 0xbe, 0xc5, 0x60, 0xef, 0x3d,
  0x2d, 0x9c, 0xaa, 0x3e, 0x4b, 0xad, 0xd6, 0x3d, 0x85, 0x5e, 0xb6, 0x3e,
  0xcd, 0x09, 0xee, 0xbc, 0x43, 0xf4, 0xd7, 0x3e, 0x09, 0xe6, 0x7a, 0x3d,
  0x54, 0x26, 0xe7, 0x3d, 0xad, 0xd4, 0xdb, 0x3e, 0xb6, 0xfd, 0xc7, 0x3e,
  0x29, 0x30, 0xc7, 0x3e, 0x66, 0x2c, 0x2e, 0xbe, 0xd1, 0x7c, 0x93, 0xbe,
  0xad, 0x19, 0xdd, 0xbe, 0xa7, 0xc2, 0xb6, 0x3e, 0x3b, 0xc6, 0xe1, 0xbe,
  0xff, 0xc7, 0x71, 0xbe, 0x09, 0xa5, 0xdc, 0x3d, 0x7c, 0xf3, 0x81, 0x3e,
  0x90, 0x61, 0xe2, 0x3c, 0xe7, 0x99, 0x93, 0xbe, 0xd5, 0xf7, 0xa6, 0x3e,
  0xfb, 0x93, 0xca, 0x3e, 0x60, 0x91, 0x65, 0xbe, 0x75, 0x2c, 0x9e, 0x3e,
  0x97, 0xc3, 0x28, 0x3f, 0xf1, 0x74, 0x8b, 0x3e, 0xe8, 0x05, 0x12, 0xbe,
  0xf1, 0x54, 0x3d, 0xbe, 0x8f, 0x1f, 0x52, 0xbe, 0xac, 0xa0, 0xaf, 0x3d,
  0xdc, 0xc0, 0x46, 0xbe, 0xcb, 0x82, 0x8d, 0x3e, 0x73, 0x75, 0xe4, 0x3e,
  0x41, 0x99, 0x86, 0x3e, 0x96, 0x25, 0x3a, 0xbe, 0xd5, 0xa2, 0xd9, 0x3e,
  0x00, 0xd8, 0x7f, 0x3d, 0x36, 0x07, 0xd2, 0xbe, 0x04, 0x1d, 0x74, 0xbe,
  0x83, 0x13, 0x7b, 0xbe, 0xcd, 0x99, 0x1c, 0xbf, 0xe9, 0xeb, 0xd8, 0x3e,
  0x7c, 0x77, 0xec, 0x3d, 0x6a, 0xa6, 0x0c, 0xbd, 0xc6, 0x77, 0xd6, 0x3e,
  0xde, 0x09, 0x11, 0xbe, 0x1d, 0xe0, 0x67, 0x3e, 0xa7, 0x3e, 0x8f, 0xbe,
  0xc2, 0x32, 0xc6, 0xbd, 0x09, 0xe3, 0x9c, 0xbc, 0x50, 0xa4, 0x9b, 0xbd,
  0xe7, 0x00, 0xc2, 0xbd, 0xa2, 0x06, 0x12, 0xbe, 0x19, 0x99, 0x99, 0x3e,
  0x21, 0xd9, 0x8c, 0xbe, 0xc4, 0xec, 0xf5, 0x3d, 0x86, 0x98, 0x84, 0xbe,
  0xad, 0xc0, 0xfc, 0x3e, 0x60, 0x30, 0xcf, 0xbd, 0x01, 0xce, 0xa3, 0x3c,
  0xb6, 0xf4, 0x42, 0xbe, 0xa4, 0x17, 0x8c, 0x3d, 0x8a, 0xa7, 0xfb, 0x3e,
  0x0e, 0x94, 0xe4, 0x3b, 0xc7, 0xf3, 0x0f, 0xbf, 0x08, 0x65, 0x04, 0x3e,
  0x83, 0x2d, 0xcb, 0x3e, 0xb7, 0x43, 0x29, 0x3e, 0xa0, 0xf8, 0x53, 0x3d,
  0x1b, 0xd6, 0xec, 0xbe, 0x60, 0x25, 0x71, 0x3c, 0xa3, 0xd7, 0xf4, 0xbe,
  0xcc, 0xce, 0xf4, 0xbe, 0xb2, 0x35, 0x14, 0xbe, 0x3a, 0x70, 0x72, 0x3e,
  0x0a, 0x9f, 0xa9, 0x3e, 0xdc, 0x86, 0x97, 0x3e, 0xa6, 0x28, 0x61, 0x3e,
  0xba, 0x53, 0x17, 0xbd, 0x0a, 0x02, 0xef, 0x3e, 0x4d, 0xfd, 0xe9, 0xbe,
  0x12, 0x4a, 0xc3, 0xbe, 0xb0, 0xbe, 0x19, 0xbd, 0xec, 0x9d, 0x52, 0xbe,
  0x56, 0x76, 0x9e, 0xbe, 0x1d, 0x8f, 0xd4, 0xbe, 0xba, 0x6a, 0x4b, 0x3e,
  0xea, 0x86, 0xf8, 0xbb, 0x26, 0x5b, 0x75, 0x3e, 0x6a, 0xa7, 0x86, 0x3e,
  0x87, 0x11, 0xd8, 0x3e, 0x90, 0x17, 0x5d, 0x3e, 0xdf, 0xfa, 0x25, 0xbe,
  0xd8, 0xd1, 0x8b, 0xbe, 0x16, 0xf8, 0x61, 0x3e, 0x7c, 0x47, 0x72, 0xbe,
  0x67, 0x60, 0xc7, 0x3d, 0x78, 0x3f, 0xff, 0xbd, 0xf0, 0xb9, 0x2b, 0xbd,
  0x4b, 0x33, 0xe7, 0x3e, 0x6c, 0x5e, 0x89, 0xbd, 0xd0, 0x43, 0xed, 0xbe,
  0x0e, 0x7b, 0x0d, 0x3e, 0x80, 0x22, 0x02, 0xbf, 0x53, 0x25, 0xb7, 0xbe,
  0x77, 0xbe, 0xb9, 0x3e, 0xce, 0x14, 0x41, 0x3e, 0xd5, 0xfb, 0x55, 0x3e,
  0x3a, 0xfe, 0x8b, 0x3d, 0x13, 0x2b, 0x7c, 0xbe, 0xb1, 0x00, 0xe4, 0x3e,
  0xec, 0xae, 0xf2, 0xbd, 0xa4, 0xc3, 0x1c, 0xbe, 0x60, 0x6b, 0xd2, 0xbd,
  0x4b, 0xae, 0xdd, 0xbe, 0x3c, 0xe4, 0xaf, 0xbe, 0x46, 0x65, 0xa9, 0xbe,
  0xcc, 0x7f, 0x9a, 0x3d, 0x18, 0x06, 0x3a, 0xbd, 0x8a, 0xb6, 0x23, 0x3e,
  0x76, 0x0b, 0xd4, 0xbe, 0xe0, 0x86, 0x9d, 0xbc, 0xb9, 0xc0, 0x94, 0x3e,
  0x94, 0x1f, 0xba, 0xbe, 0x70, 0x03, 0x9b, 0x3c, 0x6e, 0xce, 0x6c, 0x3e,
  0xc0, 0x44, 0x0b, 0x3d, 0x1e, 0xd4, 0x13, 0xbe, 0x24, 0x79, 0x9a, 0xbe,
  0x13, 0xdc, 0x9d, 0xbe, 0xe0, 0xbe, 0x43, 0xbc, 0x23, 0x17, 0x8b, 0x3e,
  0x60, 0xc8, 0xca, 0x3c, 0x1e, 0x29, 0x98, 0xbe, 0xd7, 0xd5, 0xad, 0x3e,
  0x59, 0xdd, 0xb5, 0x3e, 0xdd, 0xfb, 0xb5, 0xbe, 0xc2, 0x59, 0x1a, 0x3e,
  0x00, 0xeb, 0xa5, 0xbb, 0xd6, 0x7d, 0xdd, 0xbe, 0xf4, 0x9c, 0x76, 0xbe,
  0x24, 0x64, 0xd6, 0x3d, 0x84, 0x3b, 0x98, 0xbd, 0x5e, 0xb9, 0x2e, 0x3e,
  0x45, 0xd9, 0xa4, 0xbe, 0x5c, 0x9e, 0x6c, 0x3d, 0xa3, 0xb2, 0xac, 0x3e,
  0x67, 0x88, 0x0c, 0x3f, 0xd4, 0x56, 0x7d, 0xbe, 0xac, 0x44, 0xca, 0x3e,
  0x80, 0xc6, 0x99, 0x3c, 0x5a, 0x16, 0x1b, 0xbe, 0x8a, 0x21, 0xee, 0xbe,
  0xa5, 0x76, 0x6c, 0x3d, 0xf3, 0xe8, 0xda, 0xbe, 0x94, 0xe4, 0x86, 0x3e,
  0x16, 0xa8, 0xad, 0xbc, 0x12, 0x58, 0xac, 0xbe, 0x17, 0xdb, 0x02, 0x3d,
  0x93, 0xb4, 0xaa, 0xbe, 0x3c, 0xf6, 0x47, 0x3e, 0xe9, 0xdc, 0xbe, 0x3e,
  0x40, 0xd4, 0x82, 0x3c, 0x2c, 0xdb, 0x8c, 0xbe, 0x29, 0x4d, 0x9c, 0x3e,
  0x98, 0xbd, 0x87, 0xbd, 0x80, 0x60, 0xcf, 0xbd, 0xc0, 0x5b, 0xdb, 0x3b,
  0x98, 0xcc, 0x10, 0xbe, 0x5d, 0x61, 0xa4, 0xbe, 0x10, 0x31, 0x68, 0xbd,
  0x98, 0x25, 0x24, 0xbd, 0x17, 0x89, 0xca, 0xbe, 0x2e, 0xa3, 0x63, 0x3e,
  0x14, 0x30, 0xb7, 0x3d, 0x7a, 0x43, 0x05, 0xbe, 0x6f, 0xbc, 0xd3, 0x3e,
  0xec, 0x55, 0x7d, 0x3d, 0x50, 0x47, 0x71, 0x3d, 0xd2, 0x84, 0xf7, 0x3e,
  0x2a, 0xee, 0x2f, 0xbe, 0xc0, 0x13, 0x70, 0x3e, 0x63, 0xe3, 0x9c, 0x3e,
  0xbb, 0x2d, 0x00, 0xbf, 0x5b, 0x39, 0x28, 0xbf, 0x61, 0xe7, 0x4c, 0xbe,
  0xf4, 0x0b, 0x80, 0xbe, 0x72, 0xbc, 0xf5, 0x3e, 0x56, 0x59, 0x30, 0xbe,
  0x30, 0x11, 0x6c, 0x3d, 0xe1, 0x79, 0x09, 0x3f, 0x5a, 0x75, 0x54, 0xbe,
  0x8b, 0xd5, 0xf2, 0xbe, 0x3e, 0x55, 0x73, 0xbd, 0x0c, 0xa5, 0xed, 0x3d,
  0x90, 0x8d, 0xae, 0x3c, 0x4e, 0x2e, 0x65, 0x3e, 0x96, 0xfc, 0x74, 0xbe,
  0xc1, 0x21, 0xd8, 0xbe, 0x41, 0x64, 0xdc, 0x3e, 0x0f, 0x0f, 0xa0, 0x3e,
  0xfc, 0x2a, 0xc1, 0xbe, 0x28, 0x87, 0x30, 0xbe, 0x62, 0x54, 0x95, 0xbe,
  0xb4, 0x11, 0x58, 0x3e, 0xa8, 0x29, 0xd0, 0xbe, 0x7f, 0xf5, 0xc3, 0xbd,
  0x13, 0x64, 0x4d, 0x3e, 0x41, 0x7f, 0xda, 0xbe, 0xa8, 0x30, 0x8e, 0xbe,
  0x03, 0xfc, 0xcc, 0xbe, 0x76, 0x19, 0x81, 0x3e, 0xa6, 0x1b, 0x6c, 0x3e,
  0xbe, 0x07, 0x97, 0xbe, 0xc8, 0x09, 0xb5, 0xbe, 0x4a, 0x1f, 0xb9, 0xbe,
  0x09, 0x36, 0x8b, 0xbe, 0xff, 0x73, 0x92, 0x3d, 0xc5, 0x82, 0xd7, 0xbe,
  0x00, 0x66, 0x8a, 0x3c, 0xf9, 0xc0, 0x04, 0xbf, 0x22, 0xb9, 0x8d, 0xbe,
  0x11, 0xf8, 0x59, 0x3c, 0x3d, 0xaf, 0x1c, 0x3e, 0x07, 0xfa, 0x59, 0xbe,
  0x0e, 0xff, 0xff, 0xff, 0x04, 0x00, 0x00, 0x00, 0x40, 0x00, 0x00, 0x00,
  0x3d, 0xd5, 0x49, 0x3e, 0xe8, 0x32, 0x15, 0xbd, 0x24, 0x1e, 0x3e, 0xbe,
  0x2b, 0x8b, 0x40, 0xbf, 0x0f, 0xa9, 0x94, 0x3e, 0x30, 0xdb, 0xf2, 0x3e,
  0xb9, 0x38, 0x39, 0x3f, 0x84, 0x04, 0xee, 0xbd, 0xf5, 0xb7, 0x9c, 0x3e,
  0x00, 0x00, 0x00, 0x00, 0x00, 0x00, 0x00, 0x00, 0xa3, 0x95, 0x08, 0x3f,
  0x00, 0x00, 0x00, 0x00, 0xde, 0xf4, 0x9e, 0x3e, 0x36, 0xab, 0x9a, 0xbc,
  0x91, 0xd2, 0xc8, 0xbd, 0x20, 0xfb, 0xff, 0xff, 0x24, 0xfb, 0xff, 0xff,
  0x28, 0xfb, 0xff, 0xff, 0x66, 0xff, 0xff, 0xff, 0x04, 0x00, 0x00, 0x00,
  0x40, 0x00, 0x00, 0x00, 0xeb, 0x2d, 0xa0, 0xbd, 0x00, 0x00, 0x00, 0x00,
  0x7e, 0xcf, 0x12, 0x3f, 0x00, 0x00, 0x00, 0x00, 0xd3, 0x2b, 0xcb, 0xbe,
  0x00, 0x00, 0x00, 0x00, 0xbf, 0xa1, 0x15, 0xbf, 0xe1, 0x60, 0x9a, 0xbf,
  0x8f, 0x99, 0x21, 0xbd, 0x00, 0x00, 0x00, 0x00, 0x6d, 0xec, 0xf6, 0x3e,
  0x68, 0x3c, 0x09, 0x3e, 0x00, 0x00, 0x00, 0x00, 0xa8, 0xc9, 0xdf, 0x3e,
  0xab, 0xb0, 0x0d, 0xbf, 0x1d, 0x6e, 0x5a, 0xbf, 0xb2, 0xff, 0xff, 0xff,
  0x04, 0x00, 0x00, 0x00, 0x40, 0x00, 0x00, 0x00, 0x08, 0x2d, 0x40, 0x3f,
  0x34, 0x0e, 0x18, 0x3e, 0x11, 0xd9, 0x38, 0x3f, 0xb7, 0xa4, 0x44, 0x3f,
  0xaf, 0x52, 0x83, 0x3f, 0xd3, 0xd5, 0xab, 0xbe, 0xb4, 0xc2, 0x75, 0xbf,
  0x0b, 0xa5, 0xfa, 0x3d, 0xc0, 0x89, 0x81, 0x3f, 0x24, 0xa3, 0xf6, 0x3e,
  0x3b, 0xe0, 0x89, 0xbe, 0x15, 0x00, 0x36, 0xbf, 0xf6, 0xfc, 0x02, 0xbe,
  0x97, 0x9c, 0x63, 0x3f, 0x30, 0xba, 0xdc, 0x3e, 0xf7, 0xe2, 0xcc, 0x3e,
  0x00, 0x00, 0x06, 0x00, 0x08, 0x00, 0x04, 0x00, 0x06, 0x00, 0x00, 0x00,
  0x04, 0x00, 0x00, 0x00, 0x04, 0x00, 0x00, 0x00, 0x62, 0xa5, 0x59, 0xbf,
  0xdc, 0xfb, 0xff, 0xff, 0x0f, 0x00, 0x00, 0x00, 0x54, 0x4f, 0x43, 0x4f,
  0x20, 0x43, 0x6f, 0x6e, 0x76, 0x65, 0x72, 0x74, 0x65, 0x64, 0x2e, 0x00,
  0x01, 0x00, 0x00, 0x00, 0x10, 0x00, 0x00, 0x00, 0x0c, 0x00, 0x14, 0x00,
  0x04, 0x00, 0x08, 0x00, 0x0c, 0x00, 0x10, 0x00, 0x0c, 0x00, 0x00, 0x00,
  0xf0, 0x00, 0x00, 0x00, 0xe4, 0x00, 0x00, 0x00, 0xd8, 0x00, 0x00, 0x00,
  0x04, 0x00, 0x00, 0x00, 0x03, 0x00, 0x00, 0x00, 0x90, 0x00, 0x00, 0x00,
  0x48, 0x00, 0x00, 0x00, 0x04, 0x00, 0x00, 0x00, 0xce, 0xff, 0xff, 0xff,
  0x00, 0x00, 0x00, 0x08, 0x18, 0x00, 0x00, 0x00, 0x0c, 0x00, 0x00, 0x00,
  0x04, 0x00, 0x00, 0x00, 0x40, 0xfc, 0xff, 0xff, 0x01, 0x00, 0x00, 0x00,
  0x00, 0x00, 0x00, 0x00, 0x03, 0x00, 0x00, 0x00, 0x07, 0x00, 0x00, 0x00,
  0x08, 0x00, 0x00, 0x00, 0x09, 0x00, 0x00, 0x00, 0x00, 0x00, 0x0e, 0x00,
  0x14, 0x00, 0x00, 0x00, 0x08, 0x00, 0x0c, 0x00, 0x07, 0x00, 0x10, 0x00,
  0x0e, 0x00, 0x00, 0x00, 0x00, 0x00, 0x00, 0x08, 0x1c, 0x00, 0x00, 0x00,
  0x10, 0x00, 0x00, 0x00, 0x04, 0x00, 0x00, 0x00, 0xba, 0xff, 0xff, 0xff,
  0x00, 0x00, 0x00, 0x01, 0x01, 0x00, 0x00, 0x00, 0x07, 0x00, 0x00, 0x00,
  0x03, 0x00, 0x00, 0x00, 0x04, 0x00, 0x00, 0x00, 0x05, 0x00, 0x00, 0x00,
  0x06, 0x00, 0x00, 0x00, 0x00, 0x00, 0x0e, 0x00, 0x16, 0x00, 0x00, 0x00,
  0x08, 0x00, 0x0c, 0x00, 0x07, 0x00, 0x10, 0x00, 0x0e, 0x00, 0x00, 0x00,
  0x00, 0x00, 0x00, 0x08, 0x24, 0x00, 0x00, 0x00, 0x18, 0x00, 0x00, 0x00,
  0x0c, 0x00, 0x00, 0x00, 0x00, 0x00, 0x06, 0x00, 0x08, 0x00, 0x07, 0x00,
  0x06, 0x00, 0x00, 0x00, 0x00, 0x00, 0x00, 0x01, 0x01, 0x00, 0x00, 0x00,
  0x04, 0x00, 0x00, 0x00, 0x03, 0x00, 0x00, 0x00, 0x01, 0x00, 0x00, 0x00,
  0x02, 0x00, 0x00, 0x00, 0x03, 0x00, 0x00, 0x00, 0x01, 0x00, 0x00, 0x00,
  0x00, 0x00, 0x00, 0x00, 0x01, 0x00, 0x00, 0x00, 0x01, 0x00, 0x00, 0x00,
  0x0a, 0x00, 0x00, 0x00, 0xec, 0x02, 0x00, 0x00, 0x84, 0x02, 0x00, 0x00,
  0x24, 0x02, 0x00, 0x00, 0xdc, 0x01, 0x00, 0x00, 0x98, 0x01, 0x00, 0x00,
  0x38, 0x01, 0x00, 0x00, 0xf0, 0x00, 0x00, 0x00, 0xac, 0x00, 0x00, 0x00,
  0x4c, 0x00, 0x00, 0x00, 0x04, 0x00, 0x00, 0x00, 0x4a, 0xfd, 0xff, 0xff,
  0x38, 0x00, 0x00, 0x00, 0x01, 0x00, 0x00, 0x00, 0x0c, 0x00, 0x00, 0x00,
  0x04, 0x00, 0x00, 0x00, 0x3c, 0xfd, 0xff, 0xff, 0x1e, 0x00, 0x00, 0x00,
  0x73, 0x65, 0x71, 0x75, 0x65, 0x6e, 0x74, 0x69, 0x61, 0x6c, 0x2f, 0x64,
  0x65, 0x6e, 0x73, 0x65, 0x5f, 0x32, 0x2f, 0x4d, 0x61, 0x74, 0x4d, 0x75,
  0x6c, 0x5f, 0x62, 0x69, 0x61, 0x73, 0x00, 0x00, 0x01, 0x00, 0x00, 0x00,
  0x01, 0x00, 0x00, 0x00, 0x8e, 0xfd, 0xff, 0xff, 0x4c, 0x00, 0x00, 0x00,
  0x02, 0x00, 0x00, 0x00, 0x0c, 0x00, 0x00, 0x00, 0x04, 0x00, 0x00, 0x00,
  0x80, 0xfd, 0xff, 0xff, 0x32, 0x00, 0x00, 0x00, 0x73, 0x65, 0x71, 0x75,
  0x65, 0x6e, 0x74, 0x69, 0x61, 0x6c, 0x2f, 0x64, 0x65, 0x6e, 0x73, 0x65,
  0x5f, 0x32, 0x2f, 0x4d, 0x61, 0x74, 0x4d, 0x75, 0x6c, 0x2f, 0x52, 0x65,
  0x61, 0x64, 0x56, 0x61, 0x72, 0x69, 0x61, 0x62, 0x6c, 0x65, 0x4f, 0x70,
  0x2f, 0x74, 0x72, 0x61, 0x6e, 0x73, 0x70, 0x6f, 0x73, 0x65, 0x00, 0x00,
  0x02, 0x00, 0x00, 0x00, 0x01, 0x00, 0x00, 0x00, 0x10, 0x00, 0x00, 0x00,
  0xea, 0xfd, 0xff, 0xff, 0x30, 0x00, 0x00, 0x00, 0x04, 0x00, 0x00, 0x00,
  0x0c, 0x00, 0x00, 0x00, 0x04, 0x00, 0x00, 0x00, 0xdc, 0xfd, 0xff, 0xff,
  0x17, 0x00, 0x00, 0x00, 0x73, 0x65, 0x71, 0x75, 0x65, 0x6e, 0x74, 0x69,
  0x61, 0x6c, 0x2f, 0x64, 0x65, 0x6e, 0x73, 0x65, 0x5f, 0x31, 0x2f, 0x52,
  0x65, 0x6c, 0x75, 0x00, 0x02, 0x00, 0x00, 0x00, 0x01, 0x00, 0x00, 0x00,
  0x10, 0x00, 0x00, 0x00, 0x2a, 0xfe, 0xff, 0xff, 0x38, 0x00, 0x00, 0x00,
  0x07, 0x00, 0x00, 0x00, 0x0c, 0x00, 0x00, 0x00, 0x04, 0x00, 0x00, 0x00,
  0x1c, 0xfe, 0xff, 0xff, 0x1e, 0x00, 0x00, 0x00, 0x73, 0x65, 0x71, 0x75,
  0x65, 0x6e, 0x74, 0x69, 0x61, 0x6c, 0x2f, 0x64, 0x65, 0x6e, 0x73, 0x65,
  0x5f, 0x31, 0x2f, 0x4d, 0x61, 0x74, 0x4d, 0x75, 0x6c, 0x5f, 0x62, 0x69,
  0x61, 0x73, 0x00, 0x00, 0x01, 0x00, 0x00, 0x00, 0x10, 0x00, 0x00, 0x00,
  0x6e, 0xfe, 0xff, 0xff, 0x4c, 0x00, 0x00, 0x00, 0x08, 0x00, 0x00, 0x00,
  0x0c, 0x00, 0x00, 0x00, 0x04, 0x00, 0x00, 0x00, 0x60, 0xfe, 0xff, 0xff,
  0x32, 0x00, 0x00, 0x00, 0x73, 0x65, 0x71, 0x75, 0x65, 0x6e, 0x74, 0x69,
  0x61, 0x6c, 0x2f, 0x64, 0x65, 0x6e, 0x73, 0x65, 0x5f, 0x31, 0x2f, 0x4d,
  0x61, 0x74, 0x4d, 0x75, 0x6c, 0x2f, 0x52, 0x65, 0x61, 0x64, 0x56, 0x61,
  0x72, 0x69, 0x61, 0x62, 0x6c, 0x65, 0x4f, 0x70, 0x2f, 0x74, 0x72, 0x61,
  0x6e, 0x73, 0x70, 0x6f, 0x73, 0x65, 0x00, 0x00, 0x02, 0x00, 0x00, 0x00,
  0x10, 0x00, 0x00, 0x00, 0x10, 0x00, 0x00, 0x00, 0xca, 0xfe, 0xff, 0xff,
  0x30, 0x00, 0x00, 0x00, 0x0a, 0x00, 0x00, 0x00, 0x0c, 0x00, 0x00, 0x00,
  0x04, 0x00, 0x00, 0x00, 0xbc, 0xfe, 0xff, 0xff, 0x15, 0x00, 0x00, 0x00,
  0x73, 0x65, 0x71, 0x75, 0x65, 0x6e, 0x74, 0x69, 0x61, 0x6c, 0x2f, 0x64,
  0x65, 0x6e, 0x73, 0x65, 0x2f, 0x52, 0x65, 0x6c, 0x75, 0x00, 0x00, 0x00,
  0x02, 0x00, 0x00, 0x00, 0x01, 0x00, 0x00, 0x00, 0x10, 0x00, 0x00, 0x00,
  0x0a, 0xff, 0xff, 0xff, 0x38, 0x00, 0x00, 0x00, 0x03, 0x00, 0x00, 0x00,
  0x0c, 0x00, 0x00, 0x00, 0x04, 0x00, 0x00, 0x00, 0xfc, 0xfe, 0xff, 0xff,
  0x1c, 0x00, 0x00, 0x00, 0x73, 0x65, 0x71, 0x75, 0x65, 0x6e, 0x74, 0x69,
  0x61, 0x6c, 0x2f, 0x64, 0x65, 0x6e, 0x73, 0x65, 0x2f, 0x4d, 0x61, 0x74,
  0x4d, 0x75, 0x6c, 0x5f, 0x62, 0x69, 0x61, 0x73, 0x00, 0x00, 0x00, 0x00,
  0x01, 0x00, 0x00, 0x00, 0x10, 0x00, 0x00, 0x00, 0x4e, 0xff, 0xff, 0xff,
  0x4c, 0x00, 0x00, 0x00, 0x09, 0x00, 0x00, 0x00, 0x0c, 0x00, 0x00, 0x00,
  0x04, 0x00, 0x00, 0x00, 0x40, 0xff, 0xff, 0xff, 0x30, 0x00, 0x00, 0x00,
  0x73, 0x65, 0x71, 0x75, 0x65, 0x6e, 0x74, 0x69, 0x61, 0x6c, 0x2f, 0x64,
  0x65, 0x6e, 0x73, 0x65, 0x2f, 0x4d, 0x61, 0x74, 0x4d, 0x75, 0x6c, 0x2f,
  0x52, 0x65, 0x61, 0x64, 0x56, 0x61, 0x72, 0x69, 0x61, 0x62, 0x6c, 0x65,
  0x4f, 0x70, 0x2f, 0x74, 0x72, 0x61, 0x6e, 0x73, 0x70, 0x6f, 0x73, 0x65,
  0x00, 0x00, 0x00, 0x00, 0x02, 0x00, 0x00, 0x00, 0x10, 0x00, 0x00, 0x00,
  0x01, 0x00, 0x00, 0x00, 0xaa, 0xff, 0xff, 0xff, 0x44, 0x00, 0x00, 0x00,
  0x05, 0x00, 0x00, 0x00, 0x2c, 0x00, 0x00, 0x00, 0x0c, 0x00, 0x00, 0x00,
  0x08, 0x00, 0x0c, 0x00, 0x04, 0x00, 0x08, 0x00, 0x08, 0x00, 0x00, 0x00,
  0x10, 0x00, 0x00, 0x00, 0x04, 0x00, 0x00, 0x00, 0x01, 0x00, 0x00, 0x00,
  0x00, 0x00, 0x7f, 0x43, 0x01, 0x00, 0x00, 0x00, 0x00, 0x00, 0x00, 0x00,
  0x0b, 0x00, 0x00, 0x00, 0x64, 0x65, 0x6e, 0x73, 0x65, 0x5f, 0x69, 0x6e,
  0x70, 0x75, 0x74, 0x00, 0x02, 0x00, 0x00, 0x00, 0x01, 0x00, 0x00, 0x00,
  0x01, 0x00, 0x00, 0x00, 0x00, 0x00, 0x0e, 0x00, 0x14, 0x00, 0x04, 0x00,
  0x00, 0x00, 0x08, 0x00, 0x0c, 0x00, 0x10, 0x00, 0x0e, 0x00, 0x00, 0x00,
  0x28, 0x00, 0x00, 0x00, 0x06, 0x00, 0x00, 0x00, 0x10, 0x00, 0x00, 0x00,
  0x08, 0x00, 0x00, 0x00, 0x04, 0x00, 0x04, 0x00, 0x04, 0x00, 0x00, 0x00,
  0x08, 0x00, 0x00, 0x00, 0x49, 0x64, 0x65, 0x6e, 0x74, 0x69, 0x74, 0x79,
  0x00, 0x00, 0x00, 0x00, 0x02, 0x00, 0x00, 0x00, 0x01, 0x00, 0x00, 0x00,
  0x01, 0x00, 0x00, 0x00, 0x01, 0x00, 0x00, 0x00, 0x10, 0x00, 0x00, 0x00,
  0x00, 0x00, 0x0a, 0x00, 0x0c, 0x00, 0x07, 0x00, 0x00, 0x00, 0x08, 0x00,
  0x0a, 0x00, 0x00, 0x00, 0x00, 0x00, 0x00, 0x09, 0x03, 0x00, 0x00, 0x00
};
unsigned int sine_model_data_tflite_len = 2604;
